0xf9
0xef
0xf7
0x1b
0xf3
0x1b
0xe3
0x2b
0x20
0xd7
0xf3
0xfb
0x3e
0x43
0xe0
0xd8
0x07
0x38
0x3b
0x0b
0xeb
0xf7
0xf3
0x12
0x20
0x21
0xee
0xf5
0x07
0xf3
0xff
0xfe
0x06
0xed
0xd3
0x08
0xdd
0x06
0x00
0xc3
0x4c
0xca
0xe5
0x0c
0xe6
0x0a
0xe5
0x06
0x17
0xfa
0xf7
0xfe
0xec
0xf6
0xf4
0x03
0xf2
0xfc
0xda
0x13
0xf8
0x0a
0xe4
0xe8
0x17
0xf4
0x01
0x00
0x02
0x21
0xfb
0xfb
0x02
0x22
0x1a
0xfc
0xd9
0xcc
0xd6
0xe6
0xfb
0xd5
0xea
0xfa
0x00
0xfd
0x10
0x0b
0x08
0x09
0xf8
0x18
0x07
0xf8
0x06
0xe9
0xfd
0xcb
0xc0
0xda
0xe7
0xff
0x16
0x10
0x14
0xc9
0xee
0x18
0x2d
0x05
0x90
0xb8
0xf6
0x27
0xf6
0xda
0xf7
0x21
0x1e
0x10
0x27
0x33
0x38
0x2a
0xfc
0x14
0xfe
0x02
0x11
0x0b
0x24
0x11
0x07
0x0c
0x10
0x2d
0x02
0xf9
0x06
0x03
0xfb
0xea
0xe9
0xe7
0xe7
0xf4
0xe8
0xe7
0xfb
0x06
0x00
0xf2
0x02
0x20
0x08
0x11
0x10
0xf9
0x13
0x0a
0x13
0xf3
0xcd
0x0a
0x1b
0x15
0x00
0xed
0x25
0x2b
0x27
0x1a
0x0d
0x04
0x0e
0xd2
0xcb
0xdf
0xd1
0xb5
0xf3
0xef
0xb4
0xd9
0xdb
0x44
0xfa
0xa0
0x95
0xb8
0x47
0x22
0xbc
0x81
0xd2
0x1c
0x0d
0xf6
0xdb
0xf6
0x09
0x0b
0x10
0x03
0x0c
0xfd
0x17
0x18
0xfa
0x09
0xea
0xea
0x03
0xfc
0x0d
0xef
0xcf
0xec
0xea
0x1c
0xe4
0xe0
0xe9
0xea
0x1f
0x20
0x16
0x22
0xf0
0xdd
0x2d
0x15
0xe1
0xd3
0x1e
0xfe
0xe7
0xdf
0x07
0xff
0xf3
0xfd
0xf9
0x0f
0x01
0xfd
0x02
0x15
0x13
0xeb
0x05
0xa8
0x84
0x01
0x79
0xab
0xed
0x4e
0x53
0x1d
0xee
0x06
0x11
0xee
0xe7
0x16
0xf0
0xfe
0x16
0x14
0x1d
0x07
0x1f
0x20
0x0d
0xe6
0x03
0x00
0x02
0xd7
0xff
0x0a
0x10
0xda
0xea
0x0c
0x04
0xfe
0xf5
0xfc
0x14
0x12
0x07
0x03
0x10
0x0b
0xeb
0xe8
0xe7
0xf6
0xea
0xd9
0xdf
0xfd
0x12
0xf2
0xdd
0xcf
0xe3
0x08
0xf0
0x05
0xde
0xd7
0x04
0xd9
0x04
0xfd
0xf3
0xf1
0x0d
0x12
0x0c
0x03
0x04
0xf0
0xe3
0xf1
0xef
0x00
0x1c
0x1b
0x0f
0xff
0xed
0x00
0x1f
0x1d
0x1d
0x06
0xf5
0x38
0x54
0x37
0xf6
0xb7
0xd8
0xf6
0x1d
0x13
0xf9
0x03
0x0d
0x01
0xee
0x01
0xfc
0xfb
0x03
0xfe
0x0f
0xf3
0xf4
0xeb
0xf5
0x19
0x0f
0xea
0xfa
0xe1
0x24
0x1c
0x08
0x05
0x02
0x00
0x04
0x0a
0x0b
0xc9
0x14
0x21
0x19
0x0a
0xc3
0x28
0x2d
0x1e
0x14
0xf2
0x0f
0x1b
0x1e
0xe3
0xe7
0x04
0xf5
0x00
0xda
0xfa
0xe0
0x13
0x02
0xe8
0xe9
0xfb
0xea
0xdb
0xe4
0x39
0xd5
0xc1
0xc5
0xdd
0x14
0xe1
0xd8
0xd8
0xe5
0x04
0x2b
0xfe
0xe0
0xe6
0x1e
0x1c
0xf9
0xe6
0x00
0x04
0x01
0xdb
0xda
0xde
0xfe
0x04
0xea
0xf0
0xec
0x03
0xf6
0xfc
0x0c
0x03
0x12
0x0e
0x17
0x25
0x12
0x1e
