0x17
0x21
0x05
0xe7
0xd7
0x2d
0x13
0x28
0x12
0xa2
0x37
0x1e
0x36
0xfc
0x9c
0x4a
0x24
0x23
0xf2
0x9e
0x3b
0xee
0xe5
0xcb
0xde
0xf7
0xdd
0xb5
0xb1
0xdf
0xd1
0xce
0x05
0xe5
0xaf
0x24
0x11
0x36
0xf8
0xd3
0x22
0x30
0x4a
0x17
0xee
0x37
0x17
0x31
0x19
0x06
0x16
0x1e
0x15
0x0c
0xe7
0x21
0x12
0x27
0x0f
0x10
0x2a
0x1c
0x24
0x06
0x1c
0x2c
0x27
0x2f
0x11
0x01
0x25
0x2b
0x12
0x04
0xec
